/**
  ******************************************************************************
  * @file    network_data_params.c
  * @author  AST Embedded Analytics Research Platform
  * @date    Thu Sep 14 21:13:46 2023
  * @brief   AI Tool Automatic Code Generator for Embedded NN computing
  ******************************************************************************
  * Copyright (c) 2023 STMicroelectronics.
  * All rights reserved.
  *
  * This software is licensed under terms that can be found in the LICENSE file
  * in the root directory of this software component.
  * If no LICENSE file comes with this software, it is provided AS-IS.
  ******************************************************************************
  */

#include "network_data_params.h"


/**  Activations Section  ****************************************************/
ai_handle g_network_activations_table[1 + 2] = {
  AI_HANDLE_PTR(AI_MAGIC_MARKER),
  AI_HANDLE_PTR(NULL),
  AI_HANDLE_PTR(AI_MAGIC_MARKER),
};




/**  Weights Section  ********************************************************/
AI_ALIGNED(32)
const ai_u64 s_network_weights_array_u64[665] = {
  0x3dd1fd29bdba5fdeU, 0x3df9fd8c3dc29a25U, 0xbeb1ffc43eadb02eU, 0x3e0f49613ca2c715U,
  0x3e71b61a3ef82345U, 0xbb4ff8303e263f6fU, 0x3f08d7cbbeded142U, 0xbe2353463e7e73e3U,
  0xbc584e193e8f8639U, 0xbe05c8663e07e91dU, 0x3e0a7c0dbe33a8f9U, 0x3e9920eb3ecf4129U,
  0xbda1718b3dc4629bU, 0x3d6682bb3edeb00dU, 0xbdb72dae3ed9187fU, 0x3e7eb108be8f4106U,
  0xbebdc19e3e5d90b0U, 0xbed7232f3db757eaU, 0xbda08c213dedd53fU, 0x3e938c86be74eb79U,
  0x3c81e411ba86815eU, 0x3e29b5ca3bd7c158U, 0xbdcb749d3e01cb0bU, 0x3de90755beb4b007U,
  0x3ec3531b3f0c99f3U, 0xbe878852bd41d15eU, 0x3e0cea853d1956d2U, 0x3c6ca9f53ee02d3cU,
  0x3e2c333f3c07c8e2U, 0x3e9c6a503c1b5a97U, 0xbe3a43973dfb754dU, 0xbe835066be753305U,
  0xbe0c349f3e4288f5U, 0xbc7b2924bde05c26U, 0x3ecf78b1bef2cd79U, 0x3f0e968f3f33ca25U,
  0x3b2419a6bce41317U, 0x3e946c453d91cb45U, 0x3ea793433e8a7b52U, 0xbf2458673ef026d3U,
  0x3a2790fc3d0489eaU, 0xbe6a6cdbbec15b72U, 0xbcad2f303ea04d92U, 0xbe527e59be6e8d5aU,
  0x3f1115cdbe204146U, 0x3ef282de3f395189U, 0xbe3985c9bc09df3fU, 0x3ea0c592be6da556U,
  0x3d90885cbebb0d80U, 0xbdc7d1e43e0a8e57U, 0xbed9e133be0e11edU, 0xbd9dc118bf0997ceU,
  0xbe16809fbc2a685bU, 0x3df7c97ebe2b6258U, 0xbed263a93eacb415U, 0x3dcb45083f0e428aU,
  0xbe58a6c1bda49ed9U, 0x3e40263ebdd24905U, 0xbe6b3d6d3e92331cU, 0xbf042b86bcc00921U,
  0xbd5f0f1e3e827b91U, 0x3e63c46f3e8fdbe6U, 0x3e52648bbe049f46U, 0x3e8632933c036cdcU,
  0x3f0849af3d77a345U, 0xbf1d4cd33e0dba8aU, 0x3d09974c3e9309bfU, 0x3e1fee1c3c3dc713U,
  0x3e164bbc3f20756aU, 0x3ec4573e3d437020U, 0x3dd3eb0c3e622ecfU, 0xbdca72b6bd93eb15U,
  0x3e1dd7563eaddb1bU, 0xbdbac8c33ca97df1U, 0x3f28c049bf26beb6U, 0x3dfad5713d58dd39U,
  0x3e79e6053e8fbf38U, 0x3e02298d3e50acdfU, 0x3f20f7c1bc9df9e2U, 0xbe44bda63f0fd728U,
  0xbd8215d3bd9afa72U, 0xbe2352fc3e507565U, 0x3e4621ec3b97172eU, 0x3cc644643da8ecacU,
  0x3f1b5ac03eb215f9U, 0x3e8ff215bf3f7cfcU, 0x3e80c174bad01265U, 0xbc537d30beb29a78U,
  0xbe4b24e63ed88597U, 0xbef235683ca0d515U, 0x3dbaefa83dce8d1aU, 0xbe8b55e8be08a3a0U,
  0x3c394ae03ec4fe64U, 0xbe93a202be97c450U, 0x3dbb3744bf65ef9aU, 0x3d2ab9c5beb21a50U,
  0x3e5531e33ddd466aU, 0x3e3c9e02bd2b41ccU, 0x3dd412e0be368d51U, 0xbdd875433ef6de88U,
  0xbcf859e6bda71b54U, 0x3e0a757d3dff9bb7U, 0xbd5cb5b0bc91eed6U, 0x3d1a338ebd26e57cU,
  0x3f195a363e7b21f6U, 0xbebc3349be069fd6U, 0x3de69a123e16de8bU, 0x3edfeff83d004c01U,
  0x3e8a05d33f202fa7U, 0x3e97e5e8be288cb0U, 0x3beeea2b3c1d1ee6U, 0x3d7d65213d1f57a9U,
  0xbc276dcc3e455709U, 0x3ed555ee3d945ab9U, 0x3e0c03b93e087f12U, 0x3e0b56e53ae67748U,
  0xbe8b92c7bb459de0U, 0xbeebc92bbe65bd13U, 0x3e97551abdb88121U, 0xbe1523f7be9a30b6U,
  0xbe19c4d33d924b23U, 0x3d982873be187fdcU, 0x3dc31f9c3dba711dU, 0xbd6c23e33dd17cedU,
  0x3ea565ba3f34a76bU, 0x3d80022d3f66ba7cU, 0x3d3b59303eae37faU, 0x3e940fefbd11f523U,
  0xbec3c75cbe879fa1U, 0x3dddaf22be21dbaaU, 0xbe235896be04526cU, 0x3e0af2f43d85654aU,
  0xbe32cfaf3e87f86dU, 0x3e2527bc3e206bd6U, 0x3dedd066bd9fdf9cU, 0xbea2618d3c3f735aU,
  0xbeb437033e0d9da2U, 0x3e5538043d97f966U, 0x3eaa8743bea3895bU, 0xbe4cce8c3eb3a4c8U,
  0xbc2ce2043c262f47U, 0x3d6e1524bd9f0aeaU, 0x3da7ce743bcb2443U, 0x3f0f04a13eebde06U,
  0x3f3dbc8e3efc6fdaU, 0xbed86b793ed183e4U, 0xbd73452fbcbae6cfU, 0x3be150dc3e4f3076U,
  0xbefe47c1bebd92dcU, 0x3eddf8343e66eaf5U, 0x3d894bddbea6a3d0U, 0x3e3169fbbded36e1U,
  0xbeae5859bd4ba6f3U, 0x3e936a71bd288a0eU, 0x3ae0262ebe8a7d37U, 0x3dd833553e9bc56cU,
  0xbcbb1b76be149866U, 0xbc11f13f3ed83db5U, 0xbe3d660dbdbf083dU, 0xbefd8b7d3f058e20U,
  0x3d7fb7e4be3317a3U, 0x3dcb0710beae304dU, 0xbd57baffbdd1b3c1U, 0x3d1471013d9c98b6U,
  0x3ce87b1cbec5bd11U, 0x3d4ccbf53dbade9bU, 0xbda3056cbe8cf6d2U, 0x3e499e633e797fd5U,
  0x3e59b3c9beb1f483U, 0xbf00fbef3e98a289U, 0xbe440540bd9e2b11U, 0x3e0bcd553e92f1d4U,
  0xbea64900be341d25U, 0xbc055127bcdb0e02U, 0xbe3e65023e6e3297U, 0xbf156e5b3eeea514U,
  0xbe123113bebf157cU, 0xbe7fe0693ec78ddaU, 0x3bc84e313e009386U, 0x3cef022fbe73b94aU,
  0x3e051e32be811e48U, 0xbd1e9c863c913bafU, 0xbd553660be5c5d83U, 0xbe5d41c63e9f92c5U,
  0x3e3c05143e1914a6U, 0xbdf5e9cebd796b23U, 0xbdefa057befa427dU, 0xbd73be09bdd8e044U,
  0xbe48a8233e6d31bbU, 0x3eb00a01be3c8f1eU, 0x3d47dfef3e38f069U, 0xbe8c44dc3ec94929U,
  0x3e71f94c3df6c171U, 0xbeb974ef3d79f55eU, 0xbe0737a7bf547a38U, 0xbe28b904bf5f65b8U,
  0x3e23bc20be989201U, 0x3d9414c93e320846U, 0x3edc8ca43e4a1d9aU, 0xbd8155053edd3281U,
  0xbe9edec53e0a7fabU, 0xbe08e760bda031f9U, 0x3e509df8bd167af2U, 0x3e1a4ea6bb91759eU,
  0x3e833fcdbe888fa9U, 0x3eb576a93eb4b428U, 0x3ec82d1a3e8d0c7eU, 0xbe359c133e9c31adU,
  0xbcf222c9be6da6e8U, 0xbed06d89bd9133b2U, 0xbcc885073beb3f1aU, 0x3e36512a3ebb6e53U,
  0xbe65844b3e2d423eU, 0x3e458953be2afea0U, 0xbee9fd113c7639acU, 0xbf2bf264be80b9a4U,
  0x3ed66465be33d2f5U, 0x3e4fb02e3ddc57ceU, 0x3e6714de3eb1c6bdU, 0x3e01fdc9be9791cdU,
  0x3e8d643bbe02c982U, 0x3b48dd80be9a288bU, 0xbebff4833e53be58U, 0x3ebf6fe23e2ba48dU,
  0xbe59d46a3e66434eU, 0xbe1c4662bd7b7ba5U, 0x3cf13e6f3de49326U, 0x3ead056bbe17b069U,
  0x3cbe27853e4b7fcbU, 0x3e2b765ebe4d3e26U, 0xbcdd78883e1b9602U, 0x3e7a2b843e6097eeU,
  0x3e1d6e333e6fc859U, 0x3eaf9565be3cdabeU, 0xbd9cf38f3ecd29c6U, 0x3f1d30f93f06e99aU,
  0xbeb7d8a63dc7d18dU, 0xbe9abaf73cac7afeU, 0x3e84af9fbeaca8d6U, 0x3e4a40ae3ebc1c47U,
  0xbe814981be6d26adU, 0xbe0c87143c4be946U, 0x3c35d9bdbddc9a82U, 0xbe37d4d8be9fc732U,
  0x3f0518843ec14398U, 0xbe0fd568bef765dcU, 0x3e6a04d4bc8f319bU, 0x3e89d97dbeef0c83U,
  0xbe0eb21f3f407c3dU, 0xbdcae13abea206b1U, 0xbd8442cfbd972895U, 0xbe52742f3e93fb40U,
  0x3ecbf787be29e4bcU, 0xbe576f823e2df6a2U, 0x3f1e1b303edf432cU, 0xbe38fb8dbec20abfU,
  0x3f418f67be7af0ecU, 0x3e69ce1ebeb62d55U, 0xbe2919273f28123aU, 0xbeb321f7bcd9716aU,
  0xbe013fa4bbd1c0cbU, 0xbd8ab97bbdf08cedU, 0x3da274cbbe687dd4U, 0xbce6e06cbd949745U,
  0xbe2d6955be110216U, 0xbe7f7d4abdb61074U, 0xbaf999aebc26bc3cU, 0xbecdaf6bbda03359U,
  0xbb252757bed2c12eU, 0xbe13030ebea7ba50U, 0x3ae9b20dbd8e3817U, 0xbe204e92be70247aU,
  0xbe6abe5bbe68d768U, 0xbec3f0b23edf4ea7U, 0x3ec761943e995ebaU, 0xbe60005bbeead50bU,
  0x3f09282e3e865f77U, 0xbde01f543e9ab9ceU, 0xbe70ce813df82944U, 0x3e6504f33edfc255U,
  0xbd8d1999beb3790aU, 0x3e2c9b10bd8ae656U, 0xbcc945d5b9f1b3f8U, 0x3dc800243ef123b8U,
  0x3ec3a8173b024991U, 0x3eb6ec263ef4966aU, 0x3ea0c2a73d700c41U, 0x3e4392893e002360U,
  0x3e80bdfdbef61995U, 0x3e27b62c3f3e5bf1U, 0xbe43f4ea3f26376bU, 0x3e06f35d3eb577a8U,
  0xbe7467703f11fa18U, 0xbe482307be883bcdU, 0x3e3f4ac4be0722deU, 0x3d9839c2be790223U,
  0x3e88b8643ebfbb2bU, 0x3eea638f3dcc8886U, 0x3e066e133f28fb24U, 0xbe47ce19be818b21U,
  0xbe5ac86abda7ed4fU, 0xbdb2e098bd85a7f2U, 0xbebf12fcbe922302U, 0xbe43feaebe27b5d8U,
  0xbe113ed3be750c9bU, 0x3ea66d10bea32f8eU, 0x3f13c75e3d46c903U, 0xbe6ce7523d0b9b97U,
  0xbe8429eb3d17b63fU, 0xbe19a824bdb96882U, 0xbea9d9b83d81d836U, 0xbe764e22be9737d7U,
  0xbbc3790bbea1d537U, 0xbee06a273e8c8a05U, 0x3cc4aafdbd7cd593U, 0xbf17660dbe383b62U,
  0xbe6642be3e46fb16U, 0x3e543e193de83098U, 0x3d9a4078befc1330U, 0x3ee7da60bea80affU,
  0x3e1128e83e72e2cbU, 0xbeaeacce3ea74210U, 0xbe0d980abe982298U, 0xbe43ed6f3e17410fU,
  0x3e1066f5be930e48U, 0x3dc89e0b3bbbae84U, 0xbda7f3c3be446d9dU, 0xbed783f2be50d48cU,
  0xbe11ff143ea646eeU, 0xbde6a5c23f1168d7U, 0x3eb562b13e74fab3U, 0xbdcb1f6abe64a9faU,
  0xbe194ff6be79c1b1U, 0x3e80b720be845fd3U, 0xbea9c72b3dc3ac48U, 0xbeabfe433e3b7d27U,
  0x3f10e28f3e643f21U, 0x3ef9d89d3f22c07cU, 0xbe9927cfbec99b8bU, 0xbefeca6cbda162e7U,
  0xbe81890b3e4b304aU, 0xbe7aa989bedbf2fcU, 0x3d09ae89beac97ddU, 0xbe0e4cdfbf1c92d1U,
  0x3e31e17abda91683U, 0xbd9b4a42bdae5e67U, 0xbf1a6aa0be10651fU, 0xbeb4dff63e26f37dU,
  0xbecc69c3bef9eebfU, 0xbe9ce5ce3dd397deU, 0xbea5cab9bf08c18fU, 0xbe586995bec6c362U,
  0xbef9bef4bd69268bU, 0x3dce9efcbdf3d37cU, 0xbef5ffa2be8f4bb0U, 0xbe968399be642704U,
  0xbe037f2ebe26e0b4U, 0xbd811d20be9c6760U, 0x3bcd7af83d4c089dU, 0xbe292b3c3ee93b65U,
  0xbe9e8e213df7c9dbU, 0xbe675345beb0fa1fU, 0xbeaadce13d8d3fecU, 0xbe848aafbea90d38U,
  0xbda10fcebf235af3U, 0xbf0789abbceb6fffU, 0x3d601d9bbe1ffc72U, 0xbf268eaabec0d0bfU,
  0xbe61ba57be6f8994U, 0xbe74c842be69adf6U, 0xbe24ff3abefdb93aU, 0x3e9ba686be81f7baU,
  0xbe567d4d3eb140fcU, 0xbe7caedf3e97dfc4U, 0xbe6cf189bdba82a3U, 0xbece91c53d699e92U,
  0xbe93940ebeb8ca71U, 0x3d010c94be194073U, 0x3f25267cbdd20c0fU, 0x3eb7502b3f10db8bU,
  0x3f10f051be8f5bd0U, 0x3f21469cbe53b988U, 0xbe919476be02e568U, 0x3ea7fecf3f279236U,
  0x3b41212a3ec5f167U, 0x3ce48c84bd70ba29U, 0x3f13d810bea9c1a5U, 0xbc3bf7973edeee30U,
  0xbeac091bbe7b251fU, 0xbe401ef6bdb7ac1fU, 0x3e591066bd8b6699U, 0xbeb660823e893569U,
  0xbd982781be8afb3cU, 0xbed262eb3ec291abU, 0xbe9d186abe10b805U, 0x3db2d6753ce118c6U,
  0x3e92f903be3a0196U, 0x3f1d689cbeac2336U, 0xbe075ff03e1a33f5U, 0xbe5b168ebe5cab26U,
  0xbda0a552be254f17U, 0x3ee0667b3b35d0f7U, 0xbe5fa5273ea003bfU, 0xbe265fa0be1f3878U,
  0x3eaf550cbe0fa40bU, 0x3e8b43123f143ea5U, 0x3f46e826be4db8d8U, 0x3e94081bbe27aa55U,
  0xbe2633a6be6f234eU, 0xbe4abe793ef15051U, 0x3e1f0db13ec2a01dU, 0xbdc122ad3e3d6a07U,
  0x3d3a2f70bdfa3dd2U, 0x3c965a6b3ec133a8U, 0xbe2bbee93d27f289U, 0xbe619967bddc98b3U,
  0xbe45d99b3c5b9710U, 0x3edc7293be4a53a9U, 0x3c9b41903f060b98U, 0x3f21532cbe1f73a0U,
  0x3ef12f4abdb7a7bdU, 0xbc723e32be43c59dU, 0x3e8e83ad3e08e6d8U, 0x3e6ea1543ea6ef10U,
  0xbe9d6a933e6108ecU, 0x3f0bfcaabe8610c8U, 0xbe2888f33eefb42dU, 0xbe849f28beb53c23U,
  0xbe3e8d09bdd50afcU, 0xbe2cd101be0c695eU, 0xbee3499bbb729e1fU, 0xbd534937be1ab404U,
  0xbee23e23bf0810aeU, 0xbeb349d8beb50ed3U, 0xbe7e351bbd5b5cbeU, 0xbea6b1abbeeafd4eU,
  0x3e4cecd8be4b0896U, 0xbca8ab0b3e438547U, 0xbe8cf94c3ef55bedU, 0xbe2e07babe0de374U,
  0xbee3d4e43c969bf3U, 0xbec32277bf0640b5U, 0xbe5c43683e695046U, 0x3f1f092b3e9615e7U,
  0xbe96d38abecd5980U, 0x3ec8b42d3ef41edcU, 0x3e91a1213e217374U, 0xbe5cfd043e4bdd3aU,
  0xbe42e164be962d39U, 0xbe04125bbedb7b31U, 0x3d9c4c7ebdae23ceU, 0xbed265fdbd559e54U,
  0x3dd3be49bc6fdfe6U, 0x3db16c33bdb84fffU, 0x3e35f6ad3f16c0adU, 0x3e20ada03e23158bU,
  0x3f6b9bedbeae5637U, 0xbc874f043ef0b490U, 0x3edbef8a3ddbb898U, 0x3e8c00f23ee955ceU,
  0xbe5603823db19addU, 0x3e61666e3eea749dU, 0xbda4e2c53eec4785U, 0x3e4074633dd0557cU,
  0x3f190396bea8342eU, 0xbd2108183ecf57f0U, 0x3e5ec82abe7ffd38U, 0xbdf994da3ecb4d31U,
  0xbe13dc27bd6d3f29U, 0x3f0bae64be269c42U, 0x3f0bd9f33f0207fcU, 0x3f14305abea5e3aaU,
  0x3ec66486bde2f4f9U, 0xbe1624d7be97ceccU, 0x3e7904d83e730228U, 0x3e704f983f0046e2U,
  0xbe6a47273e12a564U, 0x3eeced75be8d627aU, 0xbd3d6bd93eb5e98aU, 0xbdfbff11bd0aefc9U,
  0xbe7dc82cbdc37b78U, 0xbddc2d10be94e00dU, 0x3e317bb1bd538314U, 0x3f2526ac3f53549bU,
  0x3f43ab78be92c72aU, 0x3f2f55fbbe94c3c3U, 0xbe26977bbe758932U, 0x3d8e61fc3e8738f4U,
  0x3ea817873ecbc432U, 0xbe66b0b13edb4e9aU, 0xbd8555bcbbb9b74aU, 0xbd9fb9ac3d3d5328U,
  0xbe865efc3c8a9fccU, 0xbe9bd6debea7b3aeU, 0xbe3b0d05bea4df61U, 0x3e892282be01766aU,
  0x3f52ef5a3f07761cU, 0x3f0e44c3be9b175eU, 0x3ecfe994be73d690U, 0xbe6a8087bdb26901U,
  0xbc236fc03ed1a15cU, 0x3e9915b13f2ca3d5U, 0xbdbb62963e2ac90eU, 0xbe1557243c88f080U,
  0xbd7588a53e88bf90U, 0xbe89fa6d3e04682cU, 0xbebac5e7be7b4e1fU, 0xbdd79ab33e899bfcU,
  0x3dad6223bd8ff87aU, 0xbec62907bedc4055U, 0x3e6ea0603f28a213U, 0xbeea4b293f1074f4U,
  0x3e809a343f0e326bU, 0xbe03e33fbce2b188U, 0xbe20048d3dc364bdU, 0x3e88781bbe04fedcU,
  0xbe597d0abd0d84f1U, 0xbc6262863e78f4f2U, 0x3ec985263dc32891U, 0x3e7936393f20c70aU,
  0x3cc758a93ea0ae27U, 0x3f15a2553ee12617U, 0xbed146463e05b4d7U, 0x3e4cf1c83f01deadU,
  0xbf06cb253eeb31b2U, 0x3ede43ce3f002071U, 0xbd9394f23e87b0f4U, 0xbe02ffb93e35b8ebU,
  0x3eb9d9c1bdc084d8U, 0xbeca0613bb36b768U, 0x3d2076c03ee30b0dU, 0x3ed43599be08ee7cU,
  0x3ed3944f3ecbe9c2U, 0x3b62d5833d1018e0U, 0x3f074a52be5b3da2U, 0x3f0ac9d43f07bf5bU,
  0x3f7a2e70be5e25d3U, 0x3d8b171fbd9ddf5dU, 0xbd6689dfbebc2e01U, 0xbe5c86493e8922c9U,
  0x3d8acf823debfb98U, 0xba5db578be166d5fU, 0x3f23f08dbdadab17U, 0x3e1cb6973eca90f6U,
  0xbe3bb35bbd91de49U, 0xbd8f13f4be213c74U, 0xbde6fd65bef68d55U, 0xbef6fd9a3d2b7cfdU,
  0x3c37f1d6bcebc024U, 0xbee7fbe0be8d3219U, 0xbe471037be524094U, 0xbe6a1087be92e202U,
  0xbbc4cef7bf2c4c58U, 0x3ecf3b27be5eaf3dU, 0xbec1e7183dfd1fc4U, 0xbea8fd593ee47577U,
  0xbeebf757be6d8608U, 0xbedeab853e9d1412U, 0xbee2f785bedaef83U, 0xbdb6879abf0027e2U,
  0xbefa9df03de74d19U, 0xbd784a70bd74e39bU, 0xbf0d0776bee6642fU, 0xbe802a13be5f0878U,
  0xbd58f3f43c208fa2U, 0x3ea24289bf06e2c7U, 0x3ea0e6aebe13998cU, 0xbee759e83e6cbef8U,
  0xbea10d7a3e66bfc8U, 0xbf061831beb02abdU, 0xbf03f23c3e4ea728U, 0xbdd5c0b5bef97af6U,
  0xbe9bdfa23eb3ca3cU, 0x3d4f004d3f02d885U, 0xbf0eeb4abe6486cbU, 0xbe30145e3dc80e85U,
  0xbe3380f03e9119e1U, 0x3e3f4eab3f1ea6c0U, 0x3e28562ebeb325e3U, 0xbe193da1be89aacdU,
  0x3cdfa76ebe5c480bU, 0xbecee211bd79bed5U, 0x3d6a15973cba7c4cU, 0xbd7c816d3cafeedaU,
  0x3d9725403f23d516U, 0x3e682f933e14e799U, 0xbe2f1dff3e03dd31U, 0xbe9045c5be4627d0U,
  0xbed525473cc58ff5U, 0xbe612ec53f12522fU, 0x3e9daec93ec6ac2bU, 0xbea1d79abe5e28c8U,
  0x3e4b064fbe97b21eU, 0xbe7d3b093d5822b6U, 0xbea117933e3210f6U, 0xbe8dcc2cbe1d752eU,
  0x3eb4fe2a3dd7ec02U, 0x3e428ed13e95201aU, 0xbe023dc53dc31bd1U, 0xbe797f2b3e678bb7U,
  0xbe68a651be41dc90U, 0xbed0988a3e62d39fU, 0xbe88777f3f178a6dU, 0x3e63769e3ed6067eU,
  0xbe1c49c4bed9d1f3U, 0x3ec7de96bedaf531U, 0xbe1c9007bd6b1cc3U, 0xbe9109d0bcd4c0adU,
  0xbe11f68bbdd9b0b5U, 0x3f055e2b3e819101U, 0x3ce18e283eaccd8cU, 0x3b80b5283c5ed97bU,
  0x3e42ff0b3e6873aeU, 0x3eb61b063dd4945eU, 0x3e35dfc03e42b056U, 0x3e7ad81abc95f40aU,
  0x3d3059ae3dc25937U, 0x3b9257003e91ceecU, 0x3db2e06d3b158570U, 0x3e3382243e1cff7bU,
  0x3d20cfe3bbbbcadeU, 0x3e5e4deebd45fb1aU, 0x3b43b7bf3e6de283U, 0x3e4c99ef3e59761eU,
  0xbf29df65bf960e29U, 0x3eb64e653f0dcd1cU, 0x3e9657e7bf1f2215U, 0x3f5477013f5bf277U,
  0x3e2192edbf0dd57fU, 0xbea9d4613deed91eU, 0xbfa2f63a3efab77cU, 0x39c3e587bf5e836eU,
  0x3c436f7e3d9e00edU, 0xbf09fcd8bf2d025dU, 0x3e271871bedcaf0eU, 0xbf08df093ed92e67U,
  0x3e9ae6c83ce77e32U, 0x3d4bb211bdb19278U, 0xbf0d60ecbf3d374eU, 0xbef67b76bf32a074U,
  0xbf07e036bf2106f4U, 0xbedec1f73f81ae28U, 0x3f5bd7cb3f7f4153U, 0x3d1867cdbf1f162eU,
  0x3f5852e13f3461e5U, 0x3e9157a43eb24075U, 0x3dfbfcc0bdf2bc02U, 0xbf62e4863f9008b3U,
  0xbebecc67bf617923U, 0xbf05b011bf1d257bU, 0x3e08eb593eb8c6c3U, 0x3e2d3ca0bf60cf18U,
  0xbf804827bd34976aU, 0xbf2fc671bf740613U, 0x3ea1c197bf105142U, 0xbfa71d0cbf8a3e67U,
  0x3f3e93c0be493cb7U, 0xbf870b473e55c733U, 0xbf8c11d5bfa6ea81U, 0x3e4741703e2b6373U,
  0xbf1ee411bf3bf132U, 0x3f11fa71bed92473U, 0x3f1e4c663ea42492U, 0xbe79c5913d9117cbU,
  0x3ddce266U,
};


ai_handle g_network_weights_table[1 + 2] = {
  AI_HANDLE_PTR(AI_MAGIC_MARKER),
  AI_HANDLE_PTR(s_network_weights_array_u64),
  AI_HANDLE_PTR(AI_MAGIC_MARKER),
};

